<unk>	0
<s>	0
</s>	0
▁yang	-2.99621
▁data	-3.33268
▁dan	-3.64284
▁adalah	-3.88897
▁dengan	-4.47212
▁untuk	-4.47212
▁atau	-4.51467
▁model	-4.55913
▁dalam	-4.60565
▁menjadi	-4.70573
▁dapat	-4.7598
▁dari	-4.7598
▁banyak	-4.81696
▁ini	-4.81696
▁tidak	-4.87758
▁mining	-4.94212
▁sangat	-4.94212
▁learning	-5.01111
▁pada	-5.08522
▁sering	-5.08522
▁Data	-5.25227
▁lebih	-5.34758
▁setiap	-5.34758
▁di	-5.45294
▁fitur	-5.45294
▁memiliki	-5.45294
▁satu	-5.45294
▁algoritma	-5.57073
▁berdasarkan	-5.57073
▁juga	-5.57073
▁kata	-5.57073
▁ke	-5.57073
▁menggunakan	-5.57073
▁paling	-5.57073
▁agar	-5.70426
▁benar	-5.70426
▁besar	-5.70426
▁harus	-5.70426
▁jumlah	-5.70426
▁teks	-5.70426
▁Fase	-5.85841
▁angka	-5.85841
▁baik	-5.85841
▁berarti	-5.85841
▁digunakan	-5.85841
▁disebut	-5.85841
▁kasus	-5.85841
▁keputusan	-5.85841
▁ketika	-5.85841
▁menghasilkan	-5.85841
▁metode	-5.85841
▁pohon	-5.85841
▁proses	-5.85841
▁secara	-5.85841
▁Model	-6.04073
▁baru	-6.04073
▁berbagai	-6.04073
▁besar.	-6.04073
▁data,	-6.04073
▁data.	-6.04073
▁dipakai	-6.04073
▁evaluasi	-6.04073
▁itu,	-6.04073
▁karena	-6.04073
▁kelas	-6.04073
▁lain	-6.04073
▁memilih	-6.04073
▁menentukan	-6.04073
▁nilai	-6.04073
▁penting	-6.04073
▁pusat	-6.04073
▁salah	-6.04073
▁tokenisasi	-6.04073
▁utama	-6.04073
▁KNN	-6.26387
▁Metode	-6.26387
▁Namun	-6.26387
▁Pemilihan	-6.26387
▁Setelah	-6.26387
▁Setiap	-6.26387
▁Tokenisasi	-6.26387
▁atribut	-6.26387
▁bagian	-6.26387
▁bahasa	-6.26387
▁bayes	-6.26387
▁beberapa	-6.26387
▁belajar	-6.26387
▁cara	-6.26387
▁diprediksi	-6.26387
▁informasi	-6.26387
▁k	-6.26387
▁kelompok	-6.26387
▁kinerja	-6.26387
▁klasifikasi	-6.26387
▁kosakata	-6.26387
▁latih	-6.26387
▁membagi	-6.26387
▁membantu	-6.26387
▁memecah	-6.26387
▁menemukan	-6.26387
▁model.	-6.26387
▁mudah	-6.26387
▁pengetahuan	-6.26387
▁pengguna	-6.26387
▁positif	-6.26387
▁prediksi	-6.26387
▁sebagai	-6.26387
▁sederhana	-6.26387
▁seperti	-6.26387
▁tersembunyi	-6.26387
▁transaksi	-6.26387
▁ukuran	-6.26387
▁Algoritma	-6.55156
▁Ciri	-6.55156
▁Jaringan	-6.55156
▁K	-6.55156
▁Karena	-6.55156
▁Proses	-6.55156
▁Sistem	-6.55156
▁Tujuan	-6.55156
▁Untuk	-6.55156
▁antara	-6.55156
▁belanja	-6.55156
▁bisa	-6.55156
▁cepat	-6.55156
▁contoh	-6.55156
▁dilakukan	-6.55156
▁dunia	-6.55156
▁hasilnya	-6.55156
▁karakter	-6.55156
▁kelas,	-6.55156
▁klastering	-6.55156
▁komputer	-6.55156
▁kualitas	-6.55156
▁lapisan	-6.55156
▁manusia.	-6.55156
▁masalah	-6.55156
▁membangun	-6.55156
▁memprediksi	-6.55156
▁mengelompokkan	-6.55156
▁menggabungkan	-6.55156
▁mengubah	-6.55156
▁mewakili	-6.55156
▁mining.	-6.55156
▁muncul	-6.55156
▁overfitting	-6.55156
▁panjang	-6.55156
▁pelatihan.	-6.55156
▁peluang	-6.55156
▁pemahaman	-6.55156
▁pembelajaran	-6.55156
▁pemrosesan	-6.55156
▁pendekatan	-6.55156
▁penghargaan	-6.55156
▁pernah	-6.55156
▁pola	-6.55156
▁positif.	-6.55156
▁potongan	-6.55156
▁rata	-6.55156
▁seberapa	-6.55156
▁sebuah	-6.55156
▁sehingga	-6.55156
▁subkata	-6.55156
▁tahap	-6.55156
▁tanpa	-6.55156
▁terlalu	-6.55156
▁termasuk	-6.55156
▁tetangga	-6.55156
▁tetapi	-6.55156
▁token.	-6.55156
▁tujuan	-6.55156
▁unsupervised	-6.55156
▁urutan	-6.55156
▁Agen	-6.95702
▁Akurasi	-6.95702
▁Banyak	-6.95702
▁CRISP-DM	-6.95702
▁False	-6.95702
▁Machine	-6.95702
▁Naive	-6.95702
▁Nilai	-6.95702
▁Overfitting	-6.95702
▁Pembelajaran	-6.95702
▁Pemrosesan	-6.95702
▁Reinforcement	-6.95702
▁Rekayasa	-6.95702
▁Sebelum	-6.95702
▁Supervised	-6.95702
▁Tanpa	-6.95702
▁Teknik	-6.95702
▁True	-6.95702
▁Tugas	-6.95702
▁adil	-6.95702
▁agen	-6.95702
▁akan	-6.95702
▁alami	-6.95702
▁analisis	-6.95702
▁antar	-6.95702
▁apakah	-6.95702
▁asosiasi	-6.95702
▁awal	-6.95702
▁bahasa.	-6.95702
▁baik.	-6.95702
▁baru.	-6.95702
▁basis	-6.95702
▁bekerja	-6.95702
▁belum	-6.95702
▁bentuk	-6.95702
▁berbasis	-6.95702
▁berguna	-6.95702
▁bermakna.	-6.95702
▁bersifat	-6.95702
▁berulang	-6.95702
▁berulang.	-6.95702
▁bidang	-6.95702
▁big	-6.95702
▁buatan.	-6.95702
▁buruk	-6.95702
▁deep	-6.95702
▁dibagi	-6.95702
▁diberi	-6.95702
▁dievaluasi	-6.95702
▁dikenal	-6.95702
▁diketahui.	-6.95702
▁dilatih	-6.95702
▁diperlukan	-6.95702
▁ditemukan	-6.95702
▁diubah	-6.95702
▁email	-6.95702
▁false	-6.95702
▁fitur.	-6.95702
▁gagal	-6.95702
▁hasil.	-6.95702
▁ini.	-6.95702
▁jarang	-6.95702
▁jika	-6.95702
▁kali.	-6.95702
▁kata,	-6.95702
▁kebiasaan	-6.95702
▁kecerdasan	-6.95702
▁kecil	-6.95702
▁kedua	-6.95702
▁keluaran	-6.95702
▁kemampuan	-6.95702
▁kemudian	-6.95702
▁keputusan.	-6.95702
▁kerja	-6.95702
▁ketiga	-6.95702
▁label	-6.95702
▁label.	-6.95702
▁lain.	-6.95702
▁lalu	-6.95702
▁langkah	-6.95702
▁learning,	-6.95702
▁learning.	-6.95702
▁machine	-6.95702
▁masukan	-6.95702
▁means	-6.95702
▁melainkan	-6.95702
▁melalui	-6.95702
▁memahami	-6.95702
▁memberi	-6.95702
▁membuat	-6.95702
▁membutuhkan	-6.95702
▁memengaruhi	-6.95702
▁memungkinkan	-6.95702
▁menangkap	-6.95702
▁menerima	-6.95702
▁menganggap	-6.95702
▁mengenali	-6.95702
▁menggali	-6.95702
▁menghapus	-6.95702
▁menghitung	-6.95702
▁mengolah	-6.95702
▁menguji	-6.95702
▁mengukur	-6.95702
▁menilai	-6.95702
▁mirip	-6.95702
▁misalnya	-6.95702
▁naive	-6.95702
▁negatif	-6.95702
▁negatif.	-6.95702
▁negative	-6.95702
▁nyata	-6.95702
▁oleh	-6.95702
▁pasangan	-6.95702
▁pelanggan	-6.95702
▁pembersihan	-6.95702
▁pemilihan	-6.95702
▁penerapan	-6.95702
▁permainan	-6.95702
▁persiapan	-6.95702
▁pertama	-6.95702
▁populer.	-6.95702
▁posisi	-6.95702
▁positive	-6.95702
▁positive,	-6.95702
▁prediksi.	-6.95702
▁presisi	-6.95702
▁produk	-6.95702
▁proyek.	-6.95702
▁recall	-6.95702
▁relevan	-6.95702
▁saling	-6.95702
▁sampai	-6.95702
▁seimbang.	-6.95702
▁selama	-6.95702
▁seluruh	-6.95702
▁semakin	-6.95702
▁sesuai	-6.95702
▁silang	-6.95702
▁sistem	-6.95702
▁spam	-6.95702
▁supervised	-6.95702
▁teks.	-6.95702
▁tentang	-6.95702
▁terbimbing	-6.95702
▁terhadap	-6.95702
▁terjadi	-6.95702
▁tersebut	-6.95702
▁tersebut.	-6.95702
▁tetap	-6.95702
▁tiga	-6.95702
▁tindakannya	-6.95702
▁token	-6.95702
▁true	-6.95702
▁tumpukan	-6.95702
▁uji.	-6.95702
▁umum	-6.95702
▁unit	-6.95702
▁yaitu	-6.95702
▁Alat	-7.65017
▁Analisis	-7.65017
▁Bahasa	-7.65017
▁Berbagai	-7.65017
▁Bias	-7.65017
▁Bidang	-7.65017
▁Big	-7.65017
▁Byte	-7.65017
▁CRISP-DM.	-7.65017
▁Confusion	-7.65017
▁Contohnya	-7.65017
▁Dalam	-7.65017
▁Dari	-7.65017
▁Daun	-7.65017
▁Decision	-7.65017
▁Deep	-7.65017
▁Dengan	-7.65017
▁Deteksi	-7.65017
▁Empat	-7.65017
▁Etika	-7.65017
▁Evaluasi	-7.65017
▁Fitur	-7.65017
▁Hasilnya	-7.65017
▁Jika	-7.65017
▁KDD	-7.65017
▁KDD,	-7.65017
▁KDD.	-7.65017
▁Kedua	-7.65017
▁Kelebihan	-7.65017
▁Kelemahannya	-7.65017
▁Kerangka	-7.65017
▁Klasifikasi	-7.65017
▁Klastering	-7.65017
▁Komputer	-7.65017
▁Label	-7.65017
▁Langkah	-7.65017
▁Lapisan	-7.65017
▁Lawan	-7.65017
▁Mesin	-7.65017
▁Meskipun	-7.65017
▁Misalnya	-7.65017
▁Mula	-7.65017
▁Normalisasi	-7.65017
▁Pada	-7.65017
▁Pemahaman	-7.65017
▁Pemasaran	-7.65017
▁Pembagian	-7.65017
▁Pembersihan	-7.65017
▁Penggabungan	-7.65017
▁Perbandingan	-7.65017
▁Persetujuan	-7.65017
▁Pohon	-7.65017
▁Preprocessing	-7.65017
▁Presisi	-7.65017
▁Privasi	-7.65017
▁Recall	-7.65017
▁Reduksi	-7.65017
▁Regresi	-7.65017
▁Salah	-7.65017
▁Sebagai	-7.65017
▁Sebuah	-7.65017
▁Selain	-7.65017
▁Seleksi	-7.65017
▁Semakin	-7.65017
▁Skor	-7.65017
▁Tabel	-7.65017
▁Tahapan	-7.65017
▁Tiga	-7.65017
▁Token	-7.65017
▁Transformasi	-7.65017
▁Tujuannya	-7.65017
▁Underfitting	-7.65017
▁Unsupervised	-7.65017
▁Validasi	-7.65017
▁acak.	-7.65017
▁ada	-7.65017
▁ada.	-7.65017
▁akhir.	-7.65017
▁akurasi	-7.65017
▁alasan	-7.65017
▁alat	-7.65017
▁algoritma.	-7.65017
▁analisis.	-7.65017
▁anggota	-7.65017
▁asumsi	-7.65017
▁atribut,	-7.65017
▁aturan	-7.65017
▁bagi	-7.65017
▁bahkan	-7.65017
▁baik,	-7.65017
▁bayes.	-7.65017
▁bebas	-7.65017
▁belajarnya.	-7.65017
▁belanja,	-7.65017
▁benar,	-7.65017
▁bentuk.	-7.65017
▁berada	-7.65017
▁berbeda	-7.65017
▁berdasar	-7.65017
▁bergantung	-7.65017
▁berhadapan	-7.65017
▁berhasil	-7.65017
▁berkelanjutan	-7.65017
▁berkualitas,	-7.65017
▁bermain	-7.65017
▁bernama	-7.65017
▁berpengaruh	-7.65017
▁bersamaan.	-7.65017
▁bertanggung	-7.65017
▁berubah	-7.65017
▁berupa	-7.65017
▁bias	-7.65017
▁bias.	-7.65017
▁biasanya	-7.65017
▁bidang.	-7.65017
▁bisnis	-7.65017
▁bisnis.	-7.65017
▁bobot	-7.65017
▁bpe	-7.65017
▁buatan	-7.65017
▁bukan.	-7.65017
▁buruk.	-7.65017
▁cabang	-7.65017
▁cabang.	-7.65017
▁canggih.	-7.65017
▁catatan	-7.65017
▁catur	-7.65017
▁cepat.	-7.65017
▁ciri	-7.65017
▁cocok	-7.65017
▁confusion	-7.65017
▁cross	-7.65017
▁dalam.	-7.65017
▁dasar	-7.65017
▁databases.	-7.65017
▁datang	-7.65017
▁dekat.	-7.65017
▁demi	-7.65017
▁detik	-7.65017
▁diagnosis	-7.65017
▁diakhiri	-7.65017
▁dianalisis.	-7.65017
▁dianggap	-7.65017
▁dibaca	-7.65017
▁dibangun,	-7.65017
▁dibedakan	-7.65017
▁dibeli	-7.65017
▁diberikan,	-7.65017
▁dibiarkan	-7.65017
▁digunakan.	-7.65017
▁dihapus	-7.65017
▁dihasilkan	-7.65017
▁dihasilkan.	-7.65017
▁dihindari.	-7.65017
▁dihitung	-7.65017
▁diisi	-7.65017
▁dikenal.	-7.65017
▁dikenali	-7.65017
▁dikerjakan.	-7.65017
▁dikumpulkan	-7.65017
▁dilatih,	-7.65017
▁dilihat	-7.65017
▁dilihat.	-7.65017
▁dilindungi	-7.65017
▁dimasukkan	-7.65017
▁dimensi	-7.65017
▁dimulai	-7.65017
▁diolah,	-7.65017
▁dipahami.	-7.65017
▁dipangkas	-7.65017
▁diperbarui	-7.65017
▁dipercaya.	-7.65017
▁diperhatikan.	-7.65017
▁diperoleh	-7.65017
▁dipertimbangkan.	-7.65017
▁dipilih	-7.65017
▁dipilih.	-7.65017
▁diprogram	-7.65017
▁diproses	-7.65017
▁disajikan	-7.65017
▁disalahgunakan.	-7.65017
▁discovery	-7.65017
▁diselesaikan	-7.65017
▁disesuaikan	-7.65017
▁disingkat	-7.65017
▁disiplin	-7.65017
▁ditambang,	-7.65017
▁ditentukan.	-7.65017
▁diterapkan,	-7.65017
▁ditugaskan	-7.65017
▁diukur.	-7.65017
▁diulang	-7.65017
▁diulang.	-7.65017
▁domain	-7.65017
▁dua	-7.65017
▁efektif.	-7.65017
▁efisien	-7.65017
▁eksplisit	-7.65017
▁eksplisit,	-7.65017
▁emas	-7.65017
▁enam	-7.65017
▁encoding	-7.65017
▁engineering	-7.65017
▁era	-7.65017
▁erat	-7.65017
▁etika	-7.65017
▁f1	-7.65017
▁fase	-7.65017
▁feature	-7.65017
▁film.	-7.65017
▁fleksibel	-7.65017
▁for	-7.65017
▁fraud	-7.65017
▁gambar,	-7.65017
▁ganda	-7.65017
▁hadir	-7.65017
▁hadoop	-7.65017
▁hanya	-7.65017
▁harga	-7.65017
▁hari	-7.65017
▁hasil	-7.65017
▁hiburan	-7.65017
▁hilang	-7.65017
▁hilang.	-7.65017
▁hingga	-7.65017
▁hubungan	-7.65017
▁hubungan,	-7.65017
▁hukuman	-7.65017
▁hukuman.	-7.65017
▁huruf	-7.65017
▁huruf.	-7.65017
▁ilmu	-7.65017
▁in	-7.65017
▁industri	-7.65017
▁industry	-7.65017
▁informasi,	-7.65017
▁informatif.	-7.65017
▁interpretasi	-7.65017
▁inti	-7.65017
▁isi	-7.65017
▁item.	-7.65017
▁itu	-7.65017
▁itu.	-7.65017
▁jangka	-7.65017
▁jarak	-7.65017
▁jaringan	-7.65017
▁jauh	-7.65017
▁jawab	-7.65017
▁jawaban	-7.65017
▁jumlahnya	-7.65017
▁kali	-7.65017
▁karakter,	-7.65017
▁kasus.	-7.65017
▁kategori	-7.65017
▁keadilan	-7.65017
▁keberhasilan	-7.65017
▁kebutuhan.	-7.65017
▁kecepatan	-7.65017
▁kecil.	-7.65017
▁kedekatan.	-7.65017
▁keduanya.	-7.65017
▁keempat	-7.65017
▁keenam	-7.65017
▁kehidupan.	-7.65017
▁kekurangan	-7.65017
▁kelas.	-7.65017
▁kelebihan	-7.65017
▁kelima	-7.65017
▁kelompoknya.	-7.65017
▁kemunculannya.	-7.65017
▁kepada	-7.65017
▁kerangka	-7.65017
▁keranjang	-7.65017
▁kesehatan	-7.65017
▁kesehatan.	-7.65017
▁keseimbangan	-7.65017
▁keuangan	-7.65017
▁khusus	-7.65017
▁kinerjanya.	-7.65017
▁klasifikasi,	-7.65017
▁klasifikasi.	-7.65017
▁knowledge	-7.65017
▁komponen	-7.65017
▁komputasi	-7.65017
▁komputer.	-7.65017
▁koneksi	-7.65017
▁konsep	-7.65017
▁konsisten.	-7.65017
▁kontinu,	-7.65017
▁kosong,	-7.65017
▁kotor	-7.65017
▁kuat	-7.65017
▁kumpulan	-7.65017
▁lagi.	-7.65017
▁lambat	-7.65017
▁language	-7.65017
▁lapisan.	-7.65017
▁latih.	-7.65017
▁layanan	-7.65017
▁lingkungan.	-7.65017
▁lipatan	-7.65017
▁lokasi.	-7.65017
▁luas	-7.65017
▁maka	-7.65017
▁makna.	-7.65017
▁manfaat	-7.65017
▁masing	-7.65017
▁masing.	-7.65017
▁masuk	-7.65017
▁masyarakat.	-7.65017
▁matrix	-7.65017
▁matrix,	-7.65017
▁media	-7.65017
▁melewati	-7.65017
▁melibatkan	-7.65017
▁memaksimalkan	-7.65017
▁membandingkannya	-7.65017
▁memenuhi	-7.65017
▁memetakan	-7.65017
▁mempelajari	-7.65017
▁memperkirakan	-7.65017
▁mempertahankan	-7.65017
▁memuat	-7.65017
▁menandainya	-7.65017
▁menangani	-7.65017
▁mencakup	-7.65017
▁mencari	-7.65017
▁menciptakan	-7.65017
▁mencoba	-7.65017
▁mencurigakan.	-7.65017
▁mendominasi	-7.65017
▁menemui	-7.65017
▁menemukannya	-7.65017
▁menerapkan	-7.65017
▁mengalahkan	-7.65017
▁mengalami	-7.65017
▁mengambil	-7.65017
▁mengandalkan	-7.65017
▁mengatasinya,	-7.65017
▁mengenal	-7.65017
▁mengetahui	-7.65017
▁menggambarkan	-7.65017
▁menghafal	-7.65017
▁mengklasifikasikan	-7.65017
▁mengurangi	-7.65017
▁meningkatkan	-7.65017
▁mentah	-7.65017
▁menunjukkan	-7.65017
▁menyamakan	-7.65017
▁menyarankan	-7.65017
▁menyebabkan	-7.65017
▁menyederhanakan	-7.65017
▁menyesatkan	-7.65017
▁menyimpan	-7.65017
▁menyusun	-7.65017
▁mereka	-7.65017
▁mereka.	-7.65017
▁merugikan	-7.65017
▁merupakan	-7.65017
▁mesin	-7.65017
▁meskipun	-7.65017
▁metrik	-7.65017
▁mewarisi	-7.65017
▁minggu	-7.65017
▁mining,	-7.65017
▁mirip.	-7.65017
▁mobil	-7.65017
▁model,	-7.65017
▁modern	-7.65017
▁modern,	-7.65017
▁modern.	-7.65017
▁mudah.	-7.65017
▁mula	-7.65017
▁mulai	-7.65017
▁muncul.	-7.65017
▁musim.	-7.65017
▁namun	-7.65017
▁natural	-7.65017
▁nearest	-7.65017
▁negative,	-7.65017
▁negative.	-7.65017
▁neighbors	-7.65017
▁network	-7.65017
▁neural	-7.65017
▁neuron	-7.65017
▁nomor	-7.65017
▁normalisasi,	-7.65017
▁nyata,	-7.65017
▁nyata.	-7.65017
▁otak	-7.65017
▁otonom,	-7.65017
▁overfitting.	-7.65017
▁pair	-7.65017
▁panjang.	-7.65017
▁papan	-7.65017
▁pasien.	-7.65017
▁pekerjaan	-7.65017
▁pemangkasan,	-7.65017
▁pemodelan	-7.65017
▁pemrograman	-7.65017
▁penambahan	-7.65017
▁penambangan	-7.65017
▁pendek	-7.65017
▁penemuan	-7.65017
▁pengambilan	-7.65017
▁pengelompokan.	-7.65017
▁pengguna.	-7.65017
▁penguasaan	-7.65017
▁penguatan	-7.65017
▁penilaian	-7.65017
▁penipuan	-7.65017
▁penting.	-7.65017
▁penutup,	-7.65017
▁penyakit	-7.65017
▁penyaringan	-7.65017
▁perangkat,	-7.65017
▁percobaan	-7.65017
▁perkembangan	-7.65017
▁pertanyaan	-7.65017
▁pilihan	-7.65017
▁pola,	-7.65017
▁pola.	-7.65017
▁populer	-7.65017
▁praktik	-7.65017
▁praktisi	-7.65017
▁preprocessing	-7.65017
▁preprocessing.	-7.65017
▁pribadi	-7.65017
▁process	-7.65017
▁processing	-7.65017
▁proporsi	-7.65017
▁prosesnya	-7.65017
▁pustaka	-7.65017
▁python	-7.65017
▁rata,	-7.65017
▁rawan	-7.65017
▁regresi,	-7.65017
▁regresi.	-7.65017
▁regularisasi,	-7.65017
▁reinforcement	-7.65017
▁rekayasa	-7.65017
▁rekomendasi	-7.65017
▁rinci.	-7.65017
▁robot,	-7.65017
▁rumah	-7.65017
▁rumit	-7.65017
▁rusak,	-7.65017
▁salah.	-7.65017
▁sama	-7.65017
▁sama.	-7.65017
▁saraf	-7.65017
▁sebagian	-7.65017
▁sebaiknya	-7.65017
▁sebelum	-7.65017
▁sebelumnya	-7.65017
▁sedang	-7.65017
▁sedangkan	-7.65017
▁sedikit.	-7.65017
▁seimbang	-7.65017
▁seimbang,	-7.65017
▁seiring	-7.65017
▁selalu	-7.65017
▁seleksi	-7.65017
▁selesai,	-7.65017
▁semua	-7.65017
▁sendiri	-7.65017
▁sendirinya.	-7.65017
▁seni	-7.65017
▁sensitif.	-7.65017
▁sensor	-7.65017
▁sentimen.	-7.65017
▁signifikan.	-7.65017
▁simpul	-7.65017
▁singkatan	-7.65017
▁skala	-7.65017
▁sosial,	-7.65017
▁spark.	-7.65017
▁spasi	-7.65017
▁standard	-7.65017
▁statistika,	-7.65017
▁strategi	-7.65017
▁struktur	-7.65017
▁suara,	-7.65017
▁sudah	-7.65017
▁sulit	-7.65017
▁sumber	-7.65017
▁tabel	-7.65017
▁tahu	-7.65017
▁tak	-7.65017
▁tambah	-7.65017
▁tanah.	-7.65017
▁tanggal	-7.65017
▁teknik	-7.65017
▁teknologi.	-7.65017
▁tengah	-7.65017
▁tengah,	-7.65017
▁teorema	-7.65017
▁tepat	-7.65017
▁tepat,	-7.65017
▁tepat.	-7.65017
▁terdapat	-7.65017
▁terdekatnya.	-7.65017
▁terdiri	-7.65017
▁tergantung	-7.65017
▁terhubung	-7.65017
▁terinspirasi	-7.65017
▁tersedia	-7.65017
▁tertentu.	-7.65017
▁tertinggi.	-7.65017
▁tindakan	-7.65017
▁tinggi.	-7.65017
▁tiruan	-7.65017
▁titik	-7.65017
▁tokenisasi.	-7.65017
▁tokennya	-7.65017
▁total	-7.65017
▁transformasi	-7.65017
▁transparansi	-7.65017
▁tree	-7.65017
▁tugas	-7.65017
▁tumbuh	-7.65017
▁uji	-7.65017
▁umum.	-7.65017
▁underfitting.	-7.65017
▁unigram	-7.65017
▁urutan.	-7.65017
▁utama.	-7.65017
▁utamanya	-7.65017
▁v.	-7.65017
▁validasi	-7.65017
▁variety	-7.65017
▁velocity	-7.65017
▁volume	-7.65017
▁wajar	-7.65017
