<unk>	0
<s>	0
</s>	0
.	-3.24933
an	-3.2973
▁	-3.47997
ng	-3.50094
▁ya	-3.78934
▁d	-3.89177
i	-3.90718
▁data	-3.99924
,	-4.30503
a	-4.31051
▁di	-4.41022
kan	-4.41374
▁se	-4.51838
lah	-4.58389
▁ada	-4.66859
t	-4.78809
e	-4.79126
▁men	-4.85159
l	-4.85448
▁ke	-4.90957
h	-4.92512
nya	-5.00295
▁meng	-5.02422
▁un	-5.04444
si	-5.05441
di	-5.0786
n	-5.086
▁sa	-5.12189
ga	-5.13227
▁model	-5.17926
k	-5.18394
▁mem	-5.18399
tuk	-5.18403
▁p	-5.20075
ja	-5.21702
u	-5.23664
engan	-5.26016
au	-5.30101
pat	-5.34978
▁at	-5.35579
tu	-5.37714
ring	-5.38535
▁dalam	-5.39131
▁me	-5.44376
▁ti	-5.4565
p	-5.47899
▁da	-5.51617
▁ba	-5.52835
▁mining	-5.53819
▁ini	-5.541
at	-5.54464
nyak	-5.54573
ma	-5.56264
▁learning	-5.59375
▁ter	-5.62756
▁a	-5.68251
dak	-5.69965
▁pa	-5.70783
▁T	-5.7153
iap	-5.72052
▁t	-5.72964
on	-5.73505
s	-5.76742
m	-5.7684
▁D	-5.77414
▁K	-5.78192
▁ber	-5.78412
ngat	-5.81681
da	-5.85239
▁c	-5.90412
se	-5.90991
▁memili	-5.93497
ki	-5.95179
ata	-5.95448
dari	-6.00526
▁besar	-6.01342
lebih	-6.01365
b	-6.04049
o	-6.05371
▁pem	-6.06667
▁P	-6.09942
▁fitur	-6.10434
ling	-6.14212
v	-6.15819
angka	-6.16506
ari	-6.18571
us	-6.19302
ode	-6.19583
y	-6.21781
ada	-6.22146
▁kata	-6.22948
or	-6.24433
hi	-6.27698
pa	-6.28419
sa	-6.29106
ka	-6.30032
gunakan	-6.30401
▁M	-6.30591
roses	-6.30924
▁A	-6.31544
▁berdasar	-6.31544
▁teks	-6.31545
▁kelas	-6.31546
erapa	-6.31547
▁algoritma	-6.31666
li	-6.31799
▁baik	-6.31855
eva	-6.32847
▁su	-6.33727
▁b	-6.34042
r	-6.34087
tika	-6.34159
luas	-6.36099
per	-6.38502
▁pen	-6.38894
▁m	-6.39017
▁k	-6.39796
▁Pem	-6.39836
▁har	-6.40048
N	-6.40293
sed	-6.43755
ena	-6.43993
▁ju	-6.44041
▁Fa	-6.44044
▁keputusan	-6.44044
▁C	-6.44044
▁benar	-6.44045
▁jumlah	-6.44048
in	-6.44145
lalu	-6.44911
bagi	-6.47543
▁Set	-6.50001
ta	-6.51218
▁re	-6.52881
▁per	-6.53445
paka	-6.54546
prediksi	-6.54964
kata	-6.56424
▁kasus	-6.5833
▁utama	-6.5833
▁positif	-6.58343
▁Re	-6.58507
▁itu	-6.5856
▁baru	-6.58652
▁berba	-6.58664
▁S	-6.58673
gar	-6.59121
▁proses	-6.59147
▁lain	-6.59752
▁f	-6.59933
ba	-6.60066
▁digunakan	-6.6016
ri	-6.60318
▁met	-6.61099
rti	-6.63614
nilai	-6.63954
ik	-6.6506
bah	-6.663
car	-6.68089
te	-6.6809
asi	-6.71166
▁bera	-6.72346
hasilkan	-6.73301
lu	-6.74211
▁po	-6.74594
sebut	-6.74801
▁token	-6.74987
▁trans	-6.74997
▁bahasa	-6.74997
▁hasil	-6.74997
▁penting	-6.74997
▁klasifikasi	-6.75053
sis	-6.75106
▁tokenisasi	-6.75251
entukan	-6.75339
▁Na	-6.75635
gi	-6.75748
odel	-6.76297
ukur	-6.77015
▁pus	-6.77689
▁diper	-6.77876
▁prediksi	-6.79123
▁Se	-6.80957
▁salah	-6.80988
d	-6.81446
usi	-6.82212
ru	-6.84816
w	-6.86131
su	-6.86136
ar	-6.87254
ya	-6.87798
mak	-6.88527
ara	-6.88847
ah	-6.91345
belajar	-6.91605
mbu	-6.94433
▁Un	-6.94997
derhana	-6.94997
▁atribut	-6.94997
▁bayes	-6.94997
▁kelompok	-6.94997
▁kinerja	-6.94997
▁mudah	-6.94997
▁tetap	-6.94997
▁pro	-6.94998
mun	-6.94999
▁beb	-6.95004
▁pengguna	-6.95017
▁pola	-6.95018
▁antar	-6.95056
▁informasi	-6.95108
aksi	-6.95179
▁kar	-6.95238
perti	-6.95394
▁menemukan	-6.95468
▁pel	-6.95655
▁terse	-6.96563
▁latih	-6.96978
▁seb	-6.97582
hin	-6.97595
alah	-6.98546
▁belajar	-6.98567
▁pe	-6.99133
ca	-6.99486
it	-6.99692
▁kos	-7.00542
▁bagi	-7.01157
▁v	-7.02747
g	-7.04469
eca	-7.05144
emilih	-7.05485
ol	-7.06033
▁sebag	-7.07223
ua	-7.08413
▁te	-7.09741
ukan	-7.11797
han	-7.12356
▁la	-7.12535
oto	-7.12925
f	-7.14784
iste	-7.16007
masuk	-7.16277
em	-7.16759
▁memban	-7.17935
iri	-7.18042
men	-7.18257
▁mas	-7.18399
belum	-7.18537
▁s	-7.18967
emaham	-7.19502
ujuan	-7.19621
engetahu	-7.19789
kualitas	-7.19997
ngelompok	-7.19997
▁karakter	-7.19997
▁negative	-7.19997
▁urutan	-7.19997
ontoh	-7.19997
▁La	-7.19997
▁positive	-7.19997
▁negatif	-7.19997
nggabung	-7.19997
▁dikenal	-7.19997
▁belanja	-7.19997
bangun	-7.19999
▁overfitting	-7.2
▁panjang	-7.20002
▁berulang	-7.20004
▁lapisan	-7.20011
nyi	-7.20016
▁cepat	-7.20029
▁komputer	-7.20031
ahap	-7.20031
▁nyata	-7.20043
ive	-7.2005
▁label	-7.20055
okenisasi	-7.2009
▁mewa	-7.20238
▁rata	-7.2026
gen	-7.20289
▁Tujuan	-7.20374
▁spa	-7.2039
▁Me	-7.20398
alam	-7.20423
ac	-7.20531
▁muncul	-7.20567
▁seimbang	-7.20585
▁tersebut	-7.20644
kura	-7.20818
tangga	-7.22999
dekatan	-7.23398
ep	-7.23508
angg	-7.24524
▁dit	-7.25087
na	-7.25656
ig	-7.25767
▁dip	-7.26142
uang	-7.26848
▁na	-7.27247
aran	-7.27469
harga	-7.29543
ra	-7.29713
▁man	-7.30693
kin	-7.33135
ce	-7.3334
ilih	-7.35024
ilai	-7.40186
▁tan	-7.44132
ngga	-7.45616
angga	-7.46454
kerja	-7.46502
ai	-7.46561
▁r	-7.46887
uni	-7.47082
mpu	-7.47511
latih	-7.48835
▁meny	-7.49389
S	-7.50034
lain	-7.50075
P	-7.50163
ali	-7.509
pus	-7.51845
bersi	-7.52354
isal	-7.52561
R	-7.52876
lgoritma	-7.52922
infor	-7.5331
-	-7.5333
DM	-7.5333
I	-7.5333
jika	-7.5333
▁Ba	-7.5333
▁Bi	-7.5333
▁KDD	-7.5333
▁buruk	-7.5333
▁modern	-7.5333
▁populer	-7.5333
▁umum	-7.5333
▁bentuk	-7.5333
▁buatan	-7.5333
engaruh	-7.53331
▁bidang	-7.53331
▁tindakan	-7.53331
▁mirip	-7.53331
▁klas	-7.53332
sosia	-7.53333
erhadap	-7.53348
▁kecil	-7.53349
▁jara	-7.53358
tif	-7.53373
▁kedua	-7.53381
sesuai	-7.53384
duk	-7.53408
▁mengha	-7.53458
▁mengenal	-7.53517
▁kali	-7.53602
▁analisis	-7.53609
▁dila	-7.53613
butuh	-7.53616
etahui	-7.53621
▁ne	-7.53659
mbang	-7.53777
▁perta	-7.53832
leksi	-7.53889
nah	-7.53981
fal	-7.54014
ahami	-7.54028
ota	-7.54097
▁tepat	-7.54284
adil	-7.54299
▁diberi	-7.54311
ermain	-7.54393
▁menye	-7.54402
ment	-7.54515
▁bis	-7.54559
▁dilatih	-7.54923
ipu	-7.54953
ula	-7.55511
▁uji	-7.55623
angan	-7.56563
▁De	-7.57793
▁mengu	-7.58205
olah	-7.58948
ek	-7.59909
▁peng	-7.60167
▁memu	-7.60735
ekerja	-7.60959
▁masuk	-7.61694
uran	-7.62408
ir	-7.62434
▁in	-7.63386
▁N	-7.63807
biasa	-7.67287
eh	-7.67627
tah	-7.69856
awa	-7.70986
▁menc	-7.71558
tur	-7.71677
▁kec	-7.78891
erangka	-7.80531
▁bias	-7.8399
▁keti	-7.84629
bel	-7.86224
ci	-7.87752
▁sam	-7.88523
as	-7.89141
▁ema	-7.89315
▁ko	-7.89368
atur	-7.90115
ugas	-7.90216
dekat	-7.99433
uji	-7.99693
▁ala	-8.01413
guna	-8.01974
▁sela	-8.02284
beri	-8.02561
emukan	-8.02758
lasifikasi	-8.03137
nalisis	-8.03265
formasi	-8.03271
verfitting	-8.03322
O	-8.0333
derfitting	-8.0333
engambil	-8.0333
gambar	-8.0333
obot	-8.0333
ormalisasi	-8.0333
▁eksplisit	-8.0333
▁hukuman	-8.0333
▁huruf	-8.0333
▁industr	-8.0333
▁jawab	-8.0333
▁kesehatan	-8.0333
▁matrix	-8.0333
▁mereka	-8.0333
▁prakti	-8.0333
rogram	-8.0333
▁bisnis	-8.0333
▁sendiri	-8.0333
erdasa	-8.0333
selesai	-8.0333
▁cabang	-8.03331
berhasil	-8.03331
erapkan	-8.03336
akhir	-8.03337
imb	-8.03339
▁had	-8.03341
▁Per	-8.03342
▁tengah	-8.03348
nom	-8.03348
▁dilihat	-8.03351
▁hilang	-8.03358
kumpul	-8.03362
▁neur	-8.03364
coba	-8.03372
▁kemu	-8.03381
▁hubungan	-8.03383
▁regresi	-8.034
▁ef	-8.03409
▁diulang	-8.0341
▁era	-8.03446
sien	-8.03506
▁dipilih	-8.0352
ilm	-8.03523
▁rum	-8.0353
▁masing	-8.03549
ilang	-8.03606
▁preprocessing	-8.0362
▁mula	-8.03702
▁sedang	-8.03722
▁pengua	-8.03804
ateg	-8.0393
▁kons	-8.03975
▁str	-8.03982
▁tekn	-8.03987
ekn	-8.04268
▁membu	-8.04567
▁sta	-8.04619
singkat	-8.04706
oc	-8.04822
▁pre	-8.04854
▁penamba	-8.04889
eksi	-8.04986
▁meru	-8.0509
▁mener	-8.05313
enam	-8.0535
ge	-8.05353
▁ten	-8.05571
angkas	-8.05814
asar	-8.06054
abel	-8.06201
c	-8.7776
1	-9.0333
V	-9.0333
H	-9.0333
x	-9.51369
E	-9.51379
L	-9.51389
J	-9.51399
U	-9.51409
C	-9.51419
B	-9.51429
F	-9.51439
A	-9.51449
M	-9.51459
K	-9.51469
T	-9.51479
D	-9.51489
j	-9.51499
