<unk>	0
<s>	0
</s>	0
an	-0
▁d	-1
at	-2
▁m	-3
en	-4
er	-5
in	-6
ang	-7
la	-8
si	-9
▁p	-10
ar	-11
▁b	-12
▁k	-13
ata	-14
▁s	-15
▁t	-16
em	-17
kan	-18
da	-19
▁y	-20
ing	-21
▁di	-22
▁men	-23
▁yang	-24
un	-25
el	-26
▁data	-27
▁a	-28
tu	-29
asi	-30
lah	-31
al	-32
ap	-33
as	-34
ak	-35
ik	-36
et	-37
ah	-38
▁dan	-39
es	-40
▁mem	-41
eb	-42
▁meng	-43
od	-44
eng	-45
▁ber	-46
am	-47
▁ada	-48
▁adalah	-49
ga	-50
▁ke	-51
il	-52
ih	-53
is	-54
▁l	-55
ek	-56
ja	-57
it	-58
or	-59
ed	-60
ut	-61
ya	-62
odel	-63
um	-64
ur	-65
▁un	-66
tuk	-67
▁in	-68
▁po	-69
us	-70
lam	-71
▁ter	-72
di	-73
on	-74
ro	-75
▁h	-76
▁n	-77
ok	-78
ti	-79
▁model	-80
ari	-81
engan	-82
gun	-83
alam	-84
▁untuk	-85
▁dengan	-86
▁P	-87
▁j	-88
nya	-89
atau	-90
guna	-91
▁atau	-92
uk	-93
▁S	-94
▁dip	-95
▁dalam	-96
om	-97
▁T	-98
itu	-99
▁se	-100
jadi	-101
gi	-102
ri	-103
▁K	-104
▁c	-105
▁f	-106
yak	-107
▁pen	-108
pu	-109
▁r	-110
ada	-111
ear	-112
▁ba	-113
▁la	-114
▁ti	-115
▁ini	-116
▁min	-117
anyak	-118
▁mining	-119
▁menjadi	-120
ma	-121
▁D	-122
apat	-123
earn	-124
ering	-125
▁dari	-126
▁memb	-127
▁dapat	-128
▁learn	-129
▁learning	-130
ai	-131
ros	-132
angk	-133
asil	-134
oken	-135
▁banyak	-136
asa	-137
dak	-138
ela	-139
eti	-140
omp	-141
▁pem	-142
roses	-143
▁peng	-144
▁tidak	-145
gunakan	-146
ep	-147
▁M	-148
ali	-149
ara	-150
uan	-151
ung	-152
ting	-153
ukan	-154
angat	-155
▁sangat	-156
las	-157
per	-158
▁pr	-159
atan	-160
edik	-161
ilih	-162
▁seb	-163
etiap	-164
ba	-165
eg	-166
ama	-167
▁per	-168
isasi	-169
▁pada	-170
▁posi	-171
ediksi	-172
▁sering	-173
lg	-174
ub	-175
uj	-176
ul	-177
ve	-178
ika	-179
lai	-180
bang	-181
ebih	-182
esar	-183
itma	-184
itur	-185
lgor	-186
▁Pem	-187
▁dis	-188
▁besar	-189
▁token	-190
lgoritma	-191
aru	-192
ati	-193
das	-194
eks	-195
for	-196
gai	-197
jar	-198
atih	-199
erap	-200
▁ben	-201
▁Data	-202
▁fitur	-203
▁mengh	-204
▁positi	-205
ode	-206
sif	-207
ebut	-208
erja	-209
ilai	-210
aling	-211
arkan	-212
etode	-213
▁kata	-214
elajar	-215
▁lebih	-216
▁setiap	-217
ev	-218
▁A	-219
▁F	-220
▁N	-221
ans	-222
atu	-223
bel	-224
han	-225
iki	-226
sis	-227
▁ag	-228
▁tr	-229
alah	-230
▁kar	-231
▁kel	-232
angka	-233
iliki	-234
▁baik	-235
▁satu	-236
▁teks	-237
▁ters	-238
▁kelas	-239
▁berdas	-240
▁memiliki	-241
▁algoritma	-242
ec	-243
im	-244
lu	-245
▁B	-246
▁C	-247
▁o	-248
alu	-249
ena	-250
erf	-251
gan	-252
hon	-253
iri	-254
san	-255
uga	-256
vis	-257
▁an	-258
▁bi	-259
▁mu	-260
form	-261
putu	-262
uper	-263
▁dik	-264
▁har	-265
▁jum	-266
▁neg	-267
▁pel	-268
▁tet	-269
erfit	-270
ikasi	-271
lasif	-272
ompok	-273
vised	-274
▁juga	-275
aluasi	-276
▁benar	-277
asilkan	-278
putusan	-279
▁jumlah	-280
▁negati	-281
▁paling	-282
erfitting	-283
upervised	-284
lasifikasi	-285
▁keputusan	-286
▁berdasarkan	-287
▁menggunakan	-288
pa	-289
▁R	-290
ase	-291
ber	-292
tem	-293
▁ut	-294
aham	-295
asus	-296
atri	-297
entu	-298
epat	-299
etah	-300
ukur	-301
▁bah	-302
▁itu	-303
erapa	-304
etika	-305
ujuan	-306
▁agar	-307
▁baru	-308
▁lain	-309
▁meny	-310
ilihan	-311
▁diper	-312
▁harus	-313
▁kasus	-314
formasi	-315
rediksi	-316
▁proses	-317
evaluasi	-318
▁positif	-319
▁digunakan	-320
ua	-321
amb	-322
anj	-323
dah	-324
dek	-325
esi	-326
isi	-327
pul	-328
▁ko	-329
▁me	-330
angg	-331
arti	-332
cara	-333
elum	-334
gian	-335
ubah	-336
▁dil	-337
▁kec	-338
▁mas	-339
▁pus	-340
▁sed	-341
▁sen	-342
bagai	-343
ingan	-344
omput	-345
ulang	-346
▁Fase	-347
▁seba	-348
▁angka	-349
▁hasil	-350
▁menem	-351
▁pohon	-352
▁salah	-353
▁trans	-354
▁utama	-355
entukan	-356
▁bahasa	-357
▁ketika	-358
▁metode	-359
▁secara	-360
▁berarti	-361
▁disebut	-362
▁penting	-363
▁prediksi	-364
verfitting	-365
▁tokenisasi	-366
▁klasifikasi	-367
▁menghasilkan	-368
Un	-369
eh	-370
hi	-371
ia	-372
se	-373
▁v	-374
akt	-375
but	-376
ces	-377
cul	-378
eka	-379
ent	-380
hin	-381
ont	-382
uji	-383
usi	-384
yes	-385
▁Un	-386
akai	-387
aksi	-388
amun	-389
anpa	-390
anya	-391
aran	-392
cess	-393
eksi	-394
hana	-395
isan	-396
utan	-397
▁ant	-398
▁beb	-399
▁bis	-400
▁kem	-401
▁kin	-402
▁kos	-403
▁pro	-404
angan	-405
uncul	-406
▁atri	-407
▁menc	-408
▁pola	-409
alisis	-410
anjang	-411
erhana	-412
imbang	-413
▁Model	-414
▁Token	-415
▁bayes	-416
▁latih	-417
▁mudah	-418
▁nilai	-419
▁pusat	-420
▁tetap	-421
aringan	-422
belajar	-423
omputer	-424
rosesan	-425
▁karena	-426
▁memban	-427
▁atribut	-428
▁belajar	-429
▁dipakai	-430
▁memilih	-431
belajaran	-432
▁berbagai	-433
▁evaluasi	-434
▁kelompok	-435
▁pengguna	-436
▁informasi	-437
▁menemukan	-438
▁menentukan	-439
NN	-440
ac	-441
ip	-442
oh	-443
ot	-444
ue	-445
uh	-446
ui	-447
yi	-448
▁J	-449
▁L	-450
agi	-451
bun	-452
ekn	-453
eri	-454
ete	-455
gab	-456
gas	-457
kur	-458
mas	-459
a	-460
▁	-461
n	-462
e	-463
i	-464
t	-465
s	-466
d	-467
g	-468
r	-469
m	-470
u	-471
k	-472
l	-473
p	-474
b	-475
h	-476
o	-477
y	-478
.	-479
j	-480
f	-481
c	-482
,	-483
v	-484
D	-485
P	-486
S	-487
T	-488
K	-489
M	-490
N	-491
w	-492
R	-493
A	-494
F	-495
B	-496
C	-497
U	-498
J	-499
L	-500
-	-501
E	-502
I	-503
O	-504
x	-505
1	-506
H	-507
V	-508
